198 094 1C4 0C0 0F8 FEC 126 01A 164 16C 0E6 0EE 0C4 0C4 048 048 F40 F6A EA2 ECC FF8 027 E93 EC2 EBC F13 E07 E5E F74 FD0 DF8 E54 02C FBE 06E 000 FDA 0BD FF3 0D6 E7A EA7 EB1 EDE E28 FA6 E36 FB4 F10 F0E 06E 06C ECC FEA 090 1AE EE8 F82 F38 FD2 EA4 05E F5A 114 048 11C 01C 0F0 F9C F6B 085 054 FD0 0A1 01B 0EC F24 EF0 084 050 F30 FF4 F18 FDC FBC FF0 F5C F90 EE4 F58 0BC 130 F70 F54 100 0E4 1A4 120 0EC 068 008 000 FF0 FE8 1B0 112 1BE 120 014 FF2 0C2 0A0 0C8 0E2 136 150 F9E F57 FAD F66 FCA FFF 0B5 0EA EA0 E74 F2C F00 1C0 1F0 0B4 0E4 1AE 099 10F FFA 112 1ED 093 16E 100 096 0EE 084 EFC E68 E9C E08 0D8 01E F82 EC8 F7C FDA ED2 F30 158 190 FB8 FF0 078 FA0 F04 E2C EA6 E06 F0E E6E 062 022 006 FC6 E90 E88 010 008 178 FD8 198 FF8 088 F9B 02D F40 F78 F1B 05D 000 E88 EDE EF2 F48 1A0 04C 190 03C 134 03A 24A 150 168 0D8 13C 0AC 0FC 0C6 1F6 1C0 E28 E86 F3A F98 E46 EFA F88 03C FA2 02C F16 FA0 FC0 0A0 F64 044 E00 F22 012 134 EEE F31 F81 FC4 E56 EDD F01 F88 F44 EEC E70 E18 12C 016 F56 E40 0C4 0C7 06D 070 1B0 00B 019 E74 148 0BC 130 0A4 