066 FB4 030 FE5 F90 FCB 031 01F 012 FD0 032 FB3 04F 022 019 FDD 076 F95 00B FD4 000 058 035 07E F8A 05C FED FC4 FA8 01B FF9 FC4 077 FA9 041 045 012 040 03C FF3 F98 FDA FC9 F9B 014 FCC 037 FF7 036 07E F98 FDC F95 039 069 00D 01A F96 02F FB2 005 FCC 028 032 FEB 054 FF5 018 F9F FA8 FD2 FC0 070 04F 039 027 F8C FA3 040 FEA 021 FBF FF3 F82 057 FE5 FE6 056 076 FFC 01E 027 F8B F91 FB7 FAA FA4 F9E 002 05E F90 FFE 044 02C FD0 FA2 FFB FD2 068 FAF 00F FF3 F95 029 03F FB4 070 F8A FD3 FE6 FA9 F97 027 FF0 04F 011 F80 FC4 04D 026 FF5 00F FD1 01F F86 04B 030 F90 FC5 01A 07F 052 FE3 029 