FD B8 A4 22 4D 2B F8 71 17 BA 2F D2 3F 7F C5 6E 32 98 BE 6F FA 61 47 84 45 2F 5E 14 20 9C B6 89 F1 D3 C9 FF AE 6F 70 17 80 67 2E 92 7F D0 4F F6 16 FA 0D AC 16 A7 F2 09 F6 55 7F 78 3E B3 89 B0 13 20 DD 22 64 C0 C9 A0 07 52 CC 49 EF 0C 7C 30 78 98 65 8E 9F 21 DE D1 4B CD 1B F6 CA 55 12 92 C4 AB 0F B3 FE 3A 74 43 94 70 79 1B 75 D4 66 80 FB A5 D0 AB 17 28 D9 8D 8C 8E 92 84 79 3C 40 88 9E C2 64 78 7E D8 CA AF 3E 37 B0 EF 8B 27 47 5C 49 EE D9 8E 51 9B 81 C6 71 2C E2 5B 2C 1B F0 76 52 82 A4 FB 14 CB F0 E5 A3 73 DC 56 8A EC 93 D0 72 5A AC 09 CB 67 94 49 AC 38 BB B5 B7 7A E1 22 8B BB 5F F5 80 F7 52 5F CD BC 54 F0 01 AF A6 68 7E E3 53 74 64 57 2E AB BC EF 86 C4 7A D0 12 1C 66 E5 31 B4 90 1F 30 CB 12 D0 4F DD 32 22 76 B3 19 95 0B 58 8A D4 35 5C 00 7E ED C4 F9 A9 A8 C4 41 1B 77 45 12 F3 C9 40 98 9B 3C DA 14 CC 36 DC 37 7E 95 F7 98 39 69 96 05 0D 2F CC 1A B2 28 32 F5 A8 EB 18 D2 54 9F C0 70 27 40 4F 8C EA 39 A3 21 BF 57 56 F3 E5 76 82 E6 FC 1E 91 A4 27 B7 9E 8B AA 02 5E 44 A2 90 2C FB FE D0 D2 68 F3 3F AF 95 B4 0F 29 70 8A A9 F0 D3 97 4F E6 27 11 80 26 D1 C4 F5 1F 4D 0F 86 4B C5 52 30 1A E3 90 7F 29 BA 97 BD 67 B7 FA 68 B1 F2 1E 18 2A C4 EC 4C 6E F8 CE F0 CE C6 A3 AA FE 96 6D A6 A9 37 2C DB 97 82 DF 49 F2 99 4E 28 F3 08 06 21 25 B1 4D B2 E9 BC C5 82 6D 05 F6 06 D6 D5 7D F9 3F 2B 4B C5 C8 37 AF 55 AB 74 38 A2 5A 6E 10 E6 F1 33 C2 87 72 7F 47 7D FC A0 F6 3E 2C 5F 42 1D C6 D6 55 E2 94 5D EF AC 81 27 DE E0 F0 04 CC FA 81 AB CD 3E 14 33 4D 5A 9E 28 40 33 1A 89 B1 D4 24 B7 93 7B B4 7B 1C BF 04 36 C2 9D 0C B8 CF 79 CF 72 E9 82 CF A7 7E F3 0B C3 61 9A 52 ED 6B 07 5E DA E6 19 69 A2 8A E6 18 6B CB 0B 48 D3 98 F1 87 2C 9C B3 07 20 DF 1B 58 33 E4 12 BF 3A D7 94 CD CC 85 AD 5C 27 5B C5 65 B5 76 EA BA 51 DC 00 3F 54 E4 98 C3 